      fff       fff       fff       fff       fff       fff       fff       fff       fff       fff       fff       fff       fff       fff       fff       fff       fff       fff       fff       fff       fff       fff       fff       fff       fff       fff       fff       fff       fff       fff       fff       fff 
 fff       fff       fff       fff       fff       fff       fff       fff       fff       fff       fff       fff       fff       fff       fff       fff       fff       fff       fff       fff       fff       fff       fff       fff       fff       fff       fff       fff       fff       fff       fff       fff       fff 
      fff       fff       fff       fff       fff       fff       fff       fff       fff       fff       fff       fff       fff       fff       fff       fff       fff       fff       fff       fff       fff       fff       fff       fff       fff       fff       fff       fff       fff       fff       fff       fff 
 fff       fff       fff       fff       fff       fff       fff       fff       fff       fff       fff       fff       fff       fff       fff       fff       fff       fff       fff       fff       fff       fff       fff       fff       fff       fff       fff       fff       fff       fff       fff       fff       fff 
      fff       fff       fff       fff       fff       fff       fff       fff       fff       fff       fff       fff       fff       fff       fff       fff       fff       fff       fff       fff       fff       fff       fff       fff       fff       fff       fff       fff       fff       fff       fff       fff 
 fff       fff       fff       fff       fff       fff       fff       fff       fff       fff       fff       fff       fff       fff       fff       fff       fff       fff       fff       fff       fff       fff       fff       fff       fff       fff       fff       fff       fff       fff       fff       fff       fff 
      fff       fff       fff       fff       fff       fff       fff       fff       fff       fff       fff       fff       fff       fff       fff       fff       fff       fff       fff       fff       fff       fff       fff       fff       fff       fff       fff       fff       fff       fff       fff       fff 
 fff       fff       fff       fff       fff       fff       fff       fff       fff       fff       fff       fff       fff       fff       fff       fff       fff       fff       fff       fff       fff       fff       fff       fff       fff       fff       fff       fff       fff       fff       fff       fff       fff 
      fff       fff       fff       fff       fff       fff       fff       fff       fff       fff       fff       fff       fff       fff       fff       fff       fff       fff       fff       fff       fff       fff       fff       fff       fff       fff       fff       fff       fff       fff       fff       fff 
 fff       fff       fff       fff       fff       fff       fff       fff       fff       fff       fff       fff       fff       fff       fff       fff       fff       fff       fff       fff       fff       fff       fff       fff       fff       fff       fff       fff       fff       fff       fff       fff       fff 
      fff       fff       fff       fff       fff       fff       fff       fff       fff       fff       fff       fff       fff       fff       fff       fff       fff       fff       fff       fff       fff       fff       fff       fff       fff       fff       fff       fff       fff       fff       fff       fff 
 fff       fff       fff       fff       fff       fff       fff       fff       fff       fff       fff       fff       fff       fff       fff       fff       fff       fff       fff       fff       fff       fff       fff       fff       fff       fff       fff       fff       fff       fff       fff       fff       fff 
      fff       fff       fff       fff       fff       fff       fff       fff       fff       fff       fff       fff       fff       fff       fff       fff       fff       fff       fff       fff       fff       fff       fff       fff       fff       fff       fff       fff       fff       fff       fff       fff 
 fff       fff       fff       fff       fff       fff       fff       fff       fff       fff       fff       fff       fff       fff       fff       fff       fff       fff       fff       fff       fff       fff       fff       fff       fff       fff       fff       fff       fff       fff       fff       fff       fff 
      fff       fff       fff       fff       fff       fff       fff       fff       fff       fff       fff       fff       fff       fff       fff       fff       fff       fff       fff       fff       fff       fff       fff       fff       fff       fff       fff       fff       fff       fff       fff       fff 
 fff       fff       fff       fff       fff       fff       fff       fff       fff       fff       fff       fff       fff       fff       fff       fff       fff       fff       fff       fff       fff       fff       fff       fff       fff       fff       fff       fff       fff       fff       fff       fff       fff 
      fff       fff       fff       fff       fff       fff       fff       fff       fff       fff       fff       fff       fff       fff       fff       fff       fff       fff       fff       fff       fff       fff       fff       fff       fff       fff       fff       fff       fff       fff       fff       fff 
 fff       fff       fff       fff       fff       fff       fff       fff       fff       fff       fff       fff       fff       fff       fff       fff       fff       fff       fff       fff       fff       fff       fff       fff       fff       fff       fff       fff       fff       fff       fff       fff       fff 
      fff       fff       fff       fff       fff       fff       fff       fff       fff       fff       fff       fff       fff       fff       fff       fff       fff       fff       fff       fff       fff       fff       fff       fff       fff       fff       fff       fff       fff       fff       fff       fff 
 fff       fff       fff       fff       fff       fff       fff       fff       fff       fff       fff       fff       fff       fff       fff       fff       fff       fff       fff       fff       fff       fff       fff       fff       fff       fff       fff       fff       fff       fff       fff       fff       fff 
      fff       fff       fff       fff       fff       fff       fff       fff       fff       fff       fff       fff       fff       fff       fff       fff       fff       fff       fff       fff       fff       fff       fff       fff       fff       fff       fff       fff       fff       fff       fff       fff 
 fff       fff       fff       fff       fff       fff       fff       fff       fff       fff       fff       fff       fff       fff       fff       fff       fff       fff       fff       fff       fff       fff       fff       fff       fff       fff       fff       fff       fff       fff       fff       fff       fff 
      fff       fff       fff       fff       fff       fff       fff       fff       fff       fff       fff       fff       fff       fff       fff       fff       fff       fff       fff       fff       fff       fff       fff       fff       fff       fff       fff       fff       fff       fff       fff       fff 
 fff       fff       fff       fff       fff       fff       fff       fff       fff       fff       fff       fff       fff       fff       fff       fff       fff       fff       fff       fff       fff       fff       fff       fff       fff       fff       fff       fff       fff       fff       fff       fff       fff 
      fff       fff       fff       fff       fff       fff       fff       fff       fff       fff       fff       fff       fff       fff       fff       fff       fff       fff       fff       fff       fff       fff       fff       fff       fff       fff       fff       fff       fff       fff       fff       fff 
 fff       fff       fff       fff       fff       fff       fff       fff       fff       fff       fff       fff       fff       fff       fff       fff       fff       fff       fff       fff       fff       fff       fff       fff       fff       fff       fff       fff       fff       fff       fff       fff       fff 
      fff       fff       fff       fff       fff       fff       fff       fff       fff       fff       fff       fff       fff       fff       fff       fff       fff       fff       fff       fff       fff       fff       fff       fff       fff       fff       fff       fff       fff       fff       fff       fff 
 fff       fff       fff       fff       fff       fff       fff       fff       fff       fff       fff       fff       fff       fff       fff       fff       fff       fff       fff       fff       fff       fff       fff       fff       fff       fff       fff       fff       fff       fff       fff       fff       fff 
      fff       fff       fff       fff       fff       fff       fff       fff       fff       fff       fff       fff       fff       fff       fff       fff       fff       fff       fff       fff       fff       fff       fff       fff       fff       fff       fff       fff       fff       fff       fff       fff 
 fff       fff       fff       fff       fff       fff       fff       fff       fff       fff       fff       fff       fff       fff       fff       fff       fff       fff       fff       fff       fff       fff       fff       fff       fff       fff       fff       fff       fff       fff       fff       fff       fff 
      fff       fff       fff       fff       fff       fff       fff       fff       fff       fff       fff       fff       fff       fff       fff       fff       fff       fff       fff       fff       fff       fff       fff       fff       fff       fff       fff       fff       fff       fff       fff       fff 
 fff       fff       fff       fff       fff       fff       fff       fff       fff       fff       fff       fff       fff       fff       fff       fff       fff       fff       fff       fff       fff       fff       fff       fff       fff       fff       fff       fff       fff       fff       fff       fff       fff 
      fff       fff       fff       fff       fff       fff       fff       fff       fff       fff       fff       fff       fff       fff       fff       fff       fff       fff       fff       fff       fff       fff       fff       fff       fff       fff       fff       fff       fff       fff       fff       fff 
 fff       fff       fff       fff       fff       fff       fff       fff       fff       fff       fff       fff       fff       fff       fff       fff       fff       fff       fff       fff       fff       fff       fff       fff       fff       fff       fff       fff       fff       fff       fff       fff       fff 
      fff       fff       fff       fff       fff       fff       fff       fff       fff       fff       fff       fff       fff       fff       fff       fff       fff       fff       fff       fff       fff       fff       fff       fff       fff       fff       fff       fff       fff       fff       fff       fff 
 fff       fff       fff       fff       fff       fff       fff       fff       fff       fff       fff       fff       fff       fff       fff       fff       fff       fff       fff       fff       fff       fff       fff       fff       fff       fff       fff       fff       fff       fff       fff       fff       fff 
      fff       fff       fff       fff       fff       fff       fff       fff       fff       fff       fff       fff       fff       fff       fff       fff       fff       fff       fff       fff       fff       fff       fff       fff       fff       fff       fff       fff       fff       fff       fff       fff 
 fff       fff       fff       fff       fff       fff       fff       fff       fff       fff       fff       fff       fff       fff       fff       fff       fff       fff       fff       fff       fff       fff       fff       fff       fff       fff       fff       fff       fff       fff       fff       fff       fff 
      fff       fff       fff       fff       fff       fff       fff       fff       fff       fff       fff       fff       fff       fff       fff       fff       fff       fff       fff       fff       fff       fff       fff       fff       fff       fff       fff       fff       fff       fff       fff       fff 
 fff       fff       fff       fff       fff       fff       fff       fff       fff       fff       fff       fff       fff       fff       fff       fff       fff       fff       fff       fff       fff       fff       fff       fff       fff       fff       fff       fff       fff       fff       fff       fff       fff 
      fff       fff       fff       fff       fff       fff       fff       fff       fff       fff       fff       fff       fff       fff       fff       fff       fff       fff       fff       fff       fff       fff       fff       fff       fff       fff       fff       fff       fff       fff       fff       fff 
 fff       fff       fff       fff       fff       fff       fff       fff       fff       fff       fff       fff       fff       fff       fff       fff       fff       fff       fff       fff       fff       fff       fff       fff       fff       fff       fff       fff       fff       fff       fff       fff       fff 
      fff       fff       fff       fff       fff       fff       fff       fff       fff       fff       fff       fff       fff       fff       fff       fff       fff       fff       fff       fff       fff       fff       fff       fff       fff       fff       fff       fff       fff       fff       fff       fff 
 fff       fff       fff       fff       fff       fff       fff       fff       fff       fff       fff       fff       fff       fff       fff       fff       fff       fff       fff       fff       fff       fff       fff       fff       fff       fff       fff       fff       fff       fff       fff       fff       fff 
      fff       fff       fff       fff       fff       fff       fff       fff       fff       fff       fff       fff       fff       fff       fff       fff       fff       fff       fff       fff       fff       fff       fff       fff       fff       fff       fff       fff       fff       fff       fff       fff 
 fff       fff       fff       fff       fff       fff       fff       fff       fff       fff       fff       fff       fff       fff       fff       fff       fff       fff       fff       fff       fff       fff       fff       fff       fff       fff       fff       fff       fff       fff       fff       fff       fff 
      fff       fff       fff       fff       fff       fff       fff       fff       fff       fff       fff       fff       fff       fff       fff       fff       fff       fff       fff       fff       fff       fff       fff       fff       fff       fff       fff       fff       fff       fff       fff       fff 
 fff       fff       fff       fff       fff       fff       fff       fff       fff       fff       fff       fff       fff       fff       fff       fff       fff       fff       fff       fff       fff       fff       fff       fff       fff       fff       fff       fff       fff       fff       fff       fff       fff 
      fff       fff       fff       fff       fff       fff       fff       fff       fff       fff       fff       fff       fff       fff       fff       fff       fff       fff       fff       fff       fff       fff       fff       fff       fff       fff       fff       fff       fff       fff       fff       fff 
 fff       fff       fff       fff       fff       fff       fff       fff       fff       fff       fff       fff       fff       fff       fff       fff       fff       fff       fff       fff       fff       fff       fff       fff       fff       fff       fff       fff       fff       fff       fff       fff       fff 
      fff       fff       fff       fff       fff       fff       fff       fff       fff       fff       fff       fff       fff       fff       fff       fff       fff       fff       fff       fff       fff       fff       fff       fff       fff       fff       fff       fff       fff       fff       fff       fff 
 fff       fff       fff       fff       fff       fff       fff       fff       fff       fff       fff       fff       fff       fff       fff       fff       fff       fff       fff       fff       fff       fff       fff       fff       fff       fff       fff       fff       fff       fff       fff       fff       fff 
      fff       fff       fff       fff       fff       fff       fff       fff       fff       fff       fff       fff       fff       fff       fff       fff       fff       fff       fff       fff       fff       fff       fff       fff       fff       fff       fff       fff       fff       fff       fff       fff 
 fff         f         c         9       fff       fff       fff       fff       fff       fff       fff       fff       fff       fff       fff       fff       fff       fff       fff       fff       fff       fff       fff       fff       fff       fff       fff       fff       fff       fff       fff       fff       fff 
       10       fff       fff         8       fff       fff       fff       fff       fff       fff       fff       fff       fff       fff       fff       fff       fff       fff       fff       fff       fff       fff       fff       fff       fff       fff       fff       fff       fff       fff       fff       fff 
 fff       fff       fff       fff         7       fff       fff       fff       fff       fff       fff       fff       fff       fff       fff       fff       fff       fff       fff       fff       fff       fff       fff       fff       fff       fff       fff       fff       fff       fff       fff       fff       fff 
       13       fff       fff       fff         6       fff       fff       fff       fff       fff       fff       fff       fff       fff       fff       fff       fff       fff       fff       fff       fff       fff       fff       fff       fff       fff       fff       fff       fff       fff       fff       fff 
 fff       fff       fff       GGG       fff         5       fff       fff       fff       fff       fff       fff       fff       fff       fff       fff       fff       fff       fff       fff       fff       fff       fff       fff       fff       fff       fff       fff       fff       fff       fff       fff       fff 
       16       fff       GGG       GGG       fff         4       fff       fff       fff       fff       fff       fff       fff       fff       fff       fff       fff       fff       fff       fff       fff       fff       fff       fff       fff       fff       fff       fff       fff       fff       fff       fff 
 fff       fff       fff       GGG       GGG         3       fff       fff       fff       fff       fff       fff       fff       fff       fff       fff       fff       fff       fff       fff       fff       fff       fff       fff       fff       fff       fff       fff       fff       fff       fff       fff       fff 
       19       fff       fff       fff       fff       fff       fff       fff       fff       fff       fff       fff       fff       fff       fff       fff       fff       fff       fff       fff       fff       fff       fff       fff       fff       fff       fff       fff       fff       fff       fff       fff 
 fff       fff       fff       fff       fff       fff       fff       fff       fff       fff       fff       fff       fff       fff       fff       fff       fff       fff       fff       fff       fff       fff       fff       fff       fff       fff       fff       fff       fff       fff       fff       fff       fff 
       1c       fff       fff       fff       fff       fff       fff       fff       fff       fff       fff       fff       fff       fff       fff       fff       fff       fff       fff       fff       fff       fff       fff       fff       fff       fff       fff       fff       fff       fff       fff       fff 
 fff       fff       fff       fff       fff       fff       fff       fff       fff       fff       fff       fff       fff       fff       fff       fff       fff       fff       fff       fff       fff       fff       fff       fff       fff       fff       fff       fff       fff       fff       fff       fff       fff 
      fff       fff       fff       fff       fff       fff       fff       fff       fff       fff       fff       fff       fff       fff       fff       fff       fff       fff       fff       fff       fff       fff       fff       fff       fff       fff       fff       fff       fff       fff       fff       fff 
