      fff       fff       fff       fff       fff       fff       fff       fff       fff       fff       fff       fff       fff       fff       fff       fff       fff       fff       fff       fff       fff       fff       fff       fff       fff       fff       fff       fff       fff       fff       fff       fff 
 fff       fff       1a2       19f       19c       199       196       193       190       18d       18a       187       184       181       17e       17b       178       175       172       16f       16c       169       166       163       160       15d       15a       157       154       151       14e       14e       fff 
      14f       1a3       1a0       fff       fff       fff       fff       fff       fff       fff       fff       fff       fff       fff       fff       fff       fff       fff       fff       fff       fff       fff       fff       fff       fff       fff       fff       fff       fff       fff       14d       fff 
 fff       14d       fff       1a1       1a4       1a7       1aa       1ad       1b0       1b3       fff        ba        b7        b4        b1        ae        ab       fff        61        5e        5b       fff        5c       fff        53       fff        4f        5a        57        54       fff       14c       fff 
      14c       1a6       fff       fff       fff       fff       fff       1ae       1b1       fff        bb       fff       fff       fff       fff       fff        aa        62       fff       fff        5a        5b       fff        54        52       fff        4e       fff        55        53       fff       14b 
 fff       fff       fff       1bb       1b8       1b5       1b2       1af       fff       1b2       fff       fff        9d        a0        a3        a6        a9       fff       fff        63       fff        59       fff        55       fff        51       fff        4d       fff       fff        52       fff       fff 
      149       1a9       1bc       fff       fff       fff       fff       fff       fff       fff        be        9c       fff       fff       fff       fff       fff        65        64        62        5a        58        56       fff       fff        50        4e        4c       fff       fff        51       148 
 fff       fff       fff       fff       fff       fff       fff       fff       fff        f0       fff       fff       fff       fff       fff       fff       fff       fff       fff       fff       fff       fff        57        57       fff        52        4f       fff        4b       fff        4f       fff       fff 
      146       1ac       1bf       fff       fff       fff       fff       fff        f1        ef        c1        99       fff       fff       fff       fff       fff        68        67        5f        5a        58       fff       fff       fff       fff       fff       fff        4a       fff        4e       145 
 fff       fff       fff       fff       fff       fff       fff       fff       fff       fff       fff       fff       fff       fff       fff       fff       fff       fff       fff       fff       fff        59       fff        59        56        53        50        4d       fff        49       fff       fff       fff 
      143       1af       1c2       fff       fff       fff       fff       fff        f4        ec        c4        96       fff       fff       fff       fff       fff        6b        6a        5c        5a       fff        5a       fff       fff       fff       fff        4c       fff        48        4b       142 
 fff       fff       fff       fff       fff       fff       fff       fff       fff       fff       fff       fff       fff       fff       fff       fff       fff       fff       fff       fff        5b       fff        5b        5b        5e        61        64       fff       fff        47        4a       fff       fff 
      140       1b2       1ba       fff       fff       fff       fff       fff        f7        e9        c7        93       fff       fff       fff       fff       fff        6e        6d        5c       fff       fff       fff       fff       fff       fff        65        49        46       fff        4b       13f 
 fff       fff       fff       fff       fff       fff       fff       fff       fff       fff       fff       fff       fff       fff       fff       fff       fff       fff       fff       fff       fff        89       fff       fff       fff       fff       fff       fff       fff        45       fff       fff       fff 
      13d       1b5       1b7       fff       fff       fff       fff       fff        fa        e6        ca        90       fff       fff       fff       fff       fff        71        70        5f        8a        88       fff       fff       fff       fff        68        46        46        44       fff       13c 
 fff       fff       1b6       fff       fff       fff       fff       fff       fff       fff       fff       fff       fff       fff       fff       fff       fff       fff       fff       fff       fff       fff       fff       fff       fff       fff       fff       fff       fff       fff        43       fff       fff 
      13a       1b8       fff       fff       fff       fff       fff       fff        fd        e3        cd        8d       fff       fff       fff       fff       fff        74        73        62        8d        85       fff       fff       fff       fff        6b        43       fff       fff        42       139 
 fff       fff       1b9       fff       10c       109       106       103       fff       fff       fff       fff       fff        81        7e        7b        78        75       fff       fff       fff       fff       fff       fff       fff       fff       fff       fff       fff       fff        41       fff       fff 
      137       fff       1ba       10e       fff       fff       fff       102       100        e0        d0        8a        87       fff       fff       fff       fff       fff        76        65        90        82       fff       fff       fff       fff        6e        40        41        40       fff       136 
 fff       fff       1bb       fff       10d       10a       107       104       101       fff       fff       fff        89        86        83        80        7d        7a        77       fff       fff       fff       fff       fff       fff       fff       fff       fff        3f        3f       fff       fff       fff 
      134       fff       fff       fff       10b       fff       fff       fff       fff        dd        d3        8a       fff       fff       fff       fff       fff       fff       fff        68        93        7f       fff       fff       fff       fff        71       fff        3e       fff        4a       133 
 fff       fff       fff       fff       fff       fff        e2        df        dc        dc       fff       fff       fff        7b        78        75        72        6f        6c        69        69       fff        7e        7b        78        75        72       fff        3d       fff        48       fff       fff 
      131       fff       fff       fff       10e        e4       fff       fff        db       fff        d6        8d       fff        79       fff       fff       fff       fff       fff       fff       fff       fff       fff       fff       fff       fff       fff        3c       fff        40        47       130 
 fff       fff       fff       fff       fff       fff        e3        e0        dd        da        d7       fff        8e       fff       fff        34        31        2e        2b        28        25        22       fff        31        34        37       fff        3b       fff        3f       fff       fff       fff 
      12e       fff       fff       fff       10a        e4       fff        de       fff       fff       fff       fff        8f        7c        35       fff       fff       fff       fff       fff       fff        21        30        32       fff       fff        3a       fff        3e       fff        44       12d 
 fff       fff       fff       fff       fff       fff       fff       fff        df        e2        e5        e8       fff       fff       fff       fff         4         1         1         4       fff        20       fff       fff        33        36        39       fff        3d        40        43       fff       fff 
      12b       fff       fff       fff       107       fff       fff       fff       fff       fff       fff        e9        93        7f        38         5       fff       GGG       fff         5        1f       fff        2d       fff       fff       fff        3a        3c       fff       fff       fff       12a 
 fff       fff       109       106       106       fff       106       fff       fff       fff       fff       fff       fff       fff       fff       fff       fff       GGG       GGG       fff       fff       fff        2c        2f        32        35       fff        3b        3e       fff        d2       fff       fff 
      128       10a       fff       105       fff       105       10c       fff       fff       fff       fff        ec        90        82        3b         8       GGG       GGG       GGG         8        1c        2b       fff       fff       fff       fff       fff       fff       fff        d1        d3       127 
 fff       fff       10b       fff       104       fff       fff       fff       fff       fff       fff       fff       fff       fff       fff       fff       fff       GGG       GGG       fff       fff       fff       fff       fff        bd        c0        c3        c6        c9        cf       fff       fff       fff 
      125       fff       10c       105       103       102       109       fff       fff       fff       fff        ef        8d        85        3e         b       GGG       GGG       GGG         b        19        28        29        bc       fff       fff       fff       fff       fff        ce        cd       124 
 fff       124       fff       fff       fff       fff       fff       fff       fff       fff       fff       fff       fff       fff       fff       fff       fff       GGG       GGG       fff       fff       fff       fff       fff       fff       fff       fff       fff       fff       fff        cc       fff       fff 
      125       123       10f        ff       100        ff       106       fff       fff       fff       fff        f2        8a        88        41         e       fff       fff       fff         e        16        25        26        b9       fff       fff       fff       fff       fff        cb        cd       121 
 fff       fff       fff       fff       fff       fff       fff       fff       fff       fff       fff       fff       fff        89       fff       fff         f        12        12         f       fff       fff        24       fff       fff       fff       fff       fff       fff       fff       fff       fff       fff 
      128       120       112        fc        fd        fc       103       fff       fff       fff       fff        f5        8a        8b        44       fff       fff        13       fff        11        13       fff        23        b6       fff       fff       fff       fff       fff        c8        d0       11e 
 fff       fff       fff       fff       fff       fff       fff       102        ff        fc        f9        f6       fff       fff       fff        45        48       fff        14       fff        12        15       fff       fff       fff       fff       fff       fff       fff       fff       fff       fff       fff 
      12b       11d       115        f9        fa        f9       fff       fff       fff       fff       fff       fff        8d       fff        47       fff        49       fff        15       fff       fff       fff        20        b3       fff       fff       fff       fff       fff        c5        d3       11b 
 fff       fff       fff       fff       fff        f8       fff        af        ac        a9        a6       fff        8e       fff       fff        48       fff       fff        16        16        19        1c        1f       fff       fff       fff       fff       fff       fff       fff       fff       fff       fff 
      12e       11a       118        f6        f7       fff        b0       fff       fff       fff        a5        8f       fff       fff       fff       fff        4c       fff       fff       fff       fff       fff       fff        b0       fff       fff       fff       fff       fff        c2        d6       118 
 fff       fff       119       fff        f5       fff        b1       fff        9e        a1        a4       fff       fff       fff        7d        7a       fff        4d        50        53        56       fff        ac        af       fff       fff       fff       fff       fff       fff       fff       fff       fff 
      131       fff       fff       fff        f4        b2       fff        9d       fff       fff       fff        92       fff        7f       fff        79       fff       fff       fff       fff        57        ab       fff       fff       fff       fff       fff       fff       fff        bf        d9       115 
 fff       fff       fff       fff       fff       fff       fff        9f        9c        99        96        93       fff        81        7e        7b        78        75        72        6f       fff       fff        a9        ac        af        b2        b5        b8        bb        be       fff       fff       fff 
      134       fff       fff       fff        f1        b5       fff       fff       fff       fff       fff        95        82       fff        7c       fff       fff       fff       fff        6e        5a        a8        aa       fff       fff       fff       fff       fff       fff       fff        cf       112 
 fff       fff       fff       fff       fff       fff       fff       fff       fff       fff       fff       fff       fff        83       fff       fff       fff       fff       fff       fff       fff       fff       fff       fff        bc        bf        c2        c5        c8        cb        ce       fff       fff 
      137       fff       fff       fff        ee        b8       fff       fff       fff       fff       fff       fff       fff        84        7f       fff       fff       fff       fff        6b        5d        a5        ad        bb        bd       fff       fff       fff       fff       fff        cf       10f 
 fff       fff       fff       fff       fff       fff       fff       fff       fff       fff       fff       fff        fd       fff       fff       fff       fff       fff       fff       fff       fff       fff       fff       fff       fff        be        c1        c4        c7        ca       fff       fff       fff 
      13a       fff       fff       fff        eb        bb       fff       fff       fff       fff       fff        fc        fe        87        82       fff       fff       fff       fff        68        60        a2        b0        b8       fff       fff       fff       fff       fff        cb        d2       10c 
 fff       fff       fff       fff       fff       fff       fff       fff       fff       fff       fff       fff       fff       fff       fff       fff       fff       fff       fff       fff       fff       fff       fff       fff       fff       fff       fff       fff       fff       fff       fff       fff       fff 
      13d       fff       fff       fff        e8        be       fff       fff       fff       fff       fff        f9       101        8a        85       fff       fff       fff       fff        65        63        9f        b3        b5       fff       fff       fff       fff       fff        ce        d5       109 
 fff       fff       fff       fff       fff       fff       fff       fff       fff       fff       fff       fff       fff       fff       fff       fff       fff       fff       fff       fff        64       fff       fff        b4       fff       fff       fff       fff       fff       fff       fff       fff       fff 
      140       fff       fff       fff        e5        c1       fff       fff       fff       fff       fff        f6       104        8d        88       fff       fff       fff       fff       fff       fff        9c        b6        b5       fff       fff       fff       fff       fff        d1        d8       106 
 fff       fff        de        e1        e4       fff       fff       fff       fff       fff       fff       fff       fff       fff       fff        89        8c        8f        92       fff        96       fff       fff       fff       fff       fff       fff       fff       fff       fff       fff       fff       fff 
      143        dd       fff       fff       fff        c4       fff       fff       fff       fff       fff        f3       107        90       fff       fff       fff       fff        93        95        97        99        b9        b8       fff       fff       fff       fff       fff        d4        db       103 
 fff       fff       fff        cb        c8        c5       fff        e6       fff        ea        ed       fff       fff       fff        91        94        97        9a       fff        94       fff        98       fff       fff       fff       fff       fff       fff       fff       fff       fff       fff       fff 
      146        da        cc       fff       fff       fff        e5        e7        e9       fff        ee        f0       10a       fff       fff       fff       fff        9b       fff       fff       fff        99        bc        bb       fff       fff       fff       fff       fff        d7        de       100 
 fff       fff       fff        cd        d0        d3       fff       fff        e8       fff        ef        ef       fff       fff        a5        a2        9f        9c       fff        a0        9d        9a       fff       fff       fff       fff       fff       fff       fff       fff        d8       fff       fff 
      149        d7        cf       fff       fff        d4        e2       fff       fff       fff       fff       fff       10d        a6       fff       fff       fff       fff        a1       fff       fff       fff        bf        be       fff       fff       fff       fff       fff       fff        e1        fd 
 fff       fff       fff       fff       fff       fff       fff       fff       fff       fff       fff       fff       fff       fff        a7        aa        ad        b0       fff       fff       fff       fff       fff        c0       fff        f5        f2        ef        ef       fff        f1       fff       fff 
      14c        d4        d2       fff       fff        d7        df       fff       fff       fff       fff       fff       110       fff       fff       fff       fff        b1        a4       fff       fff       fff       fff       fff        f5       fff        f0        ee        f1        f0       fff        fa 
 fff       fff        d3       fff       fff       fff       fff       fff       fff       fff       fff       fff       fff       fff        bb        b8        b5        b2       fff       fff       fff       fff       fff        fa        f7        f4        f1       fff       fff        ef        f2        f8       fff 
      14f       fff        d5       fff       fff        da        dc       fff       fff       fff       fff       fff       113        bc       fff       fff       fff       fff        a7       fff       fff       fff        f0       fff       fff       fff       fff        eb        ee        f0        f3        f7 
 fff       150       fff        d6        d9        db        db       fff       fff       fff       fff       fff       fff       fff        b4        b1        ae        ab        a8        a8        ab        ae       fff        ef        ec        e9        e6       fff       fff       fff       fff       fff       fff 
      152       136       fff       fff       fff       fff       fff       fff       fff       fff       fff       fff       116        bf       fff       fff       fff       fff       fff       fff       fff       fff       fff       fff       fff       fff        e5        e8        eb       fff       fff        f4 
 fff       fff       135       132       12f       12c       129       126       123       120       11d       11a       117       fff        c0        c3        c6        c9        cc        cf        d2        d5        d8        db        de        e1        e4        e7        ea        ed        f0        f3       fff 
      fff       fff       fff       fff       fff       fff       fff       fff       fff       fff       fff       fff       fff       fff       fff       fff       fff       fff       fff       fff       fff       fff       fff       fff       fff       fff       fff       fff       fff       fff       fff       fff 
