      fff       fff       fff       fff       fff       fff       fff       fff       fff       fff       fff       fff       fff       fff       fff       fff       fff       fff       fff       fff       fff       fff       fff       fff       fff       fff       fff       fff       fff       fff       fff       fff 
 fff       fff       fff       fff       fff       fff       fff       fff       fff       fff       fff       fff       fff       fff       fff       fff       fff       fff       fff       fff       fff       fff       fff       fff       fff       fff       fff       fff       fff       fff       fff       fff       fff 
      fff       fff       fff       fff       fff       fff       fff       fff       fff       fff       fff       fff       fff       fff       fff       fff       fff       fff       fff       fff       fff       fff       fff       fff       fff       fff       fff       fff       fff       fff       fff       fff 
 fff       fff       fff       fff       fff       fff       fff       fff       fff       fff       fff       fff       fff       fff       fff       fff       fff       fff       fff       fff       fff       fff       fff       fff       fff       fff       fff       fff       fff       fff       fff       fff       fff 
      fff       fff       fff       fff       fff       fff       fff       fff       fff       fff       fff       fff       fff       fff       fff       fff       fff       fff       fff       fff       fff       fff       fff       fff       fff       fff       fff       fff       fff       fff       fff       fff 
 fff       fff       fff       fff       fff       fff       fff       fff       fff       fff       fff       fff       fff       fff       fff       fff       fff       fff       fff       fff       fff       fff       fff       fff       fff       fff       fff       fff       fff       fff       fff       fff       fff 
      fff       fff       fff       fff       fff       fff       fff       fff       fff       fff       fff       fff       fff       fff       fff       fff       fff       fff       fff       fff       fff       fff       fff       fff       fff       fff       fff       fff       fff       fff       fff       fff 
 fff       fff       fff       fff       fff       fff       fff       fff       fff       fff       fff       fff       fff       fff       fff       fff       fff       fff       fff       fff       fff       fff       fff       fff       fff       fff       fff       fff       fff       fff       fff       fff       fff 
      fff       fff       fff       fff       fff       fff       fff       fff       fff       fff       fff       fff       fff       fff       fff       fff       fff       fff       fff       fff       fff       fff       fff       fff       fff       fff       fff       fff       fff       fff       fff       fff 
 fff       fff       fff       fff       fff       fff       fff       fff       fff       fff       fff       fff       fff       fff       fff       fff       fff       fff       fff       fff       fff       fff       fff       fff       fff       fff       fff       fff       fff       fff       fff       fff       fff 
      fff       fff       fff       fff       fff       fff       fff       fff       fff       fff       fff       fff       fff       fff       fff       fff       fff       fff       fff       fff       fff       fff       fff       fff       fff       fff       fff       fff       fff       fff       fff       fff 
 fff       fff       fff       fff       fff       fff       fff       fff       fff       fff       fff       fff       fff       fff       fff       fff       fff       fff       fff       fff       fff       fff       fff       fff       fff       fff       fff       fff       fff       fff       fff       fff       fff 
      fff       fff       fff       fff       fff       fff       fff       fff       fff       fff       fff       fff       fff       fff       fff       fff       fff       fff       fff       fff       fff       fff       fff       fff       fff       fff       fff       fff       fff       fff       fff       fff 
 fff       fff       fff       fff       fff       fff       fff       fff       fff       fff       fff       fff       fff       fff       fff       fff       fff       fff       fff       fff       fff       fff       fff       fff       fff       fff       fff       fff       fff       fff       fff       fff       fff 
      fff       fff       fff       fff       fff       fff       fff       fff       fff       fff       fff       fff       fff       fff       fff       fff       fff       fff       fff       fff       fff       fff       fff       fff       fff       fff       fff       fff       fff       fff       fff       fff 
 fff       fff       fff       fff       fff       fff       fff       fff       fff       fff       fff       fff       fff       fff       fff       fff       fff       fff       fff       fff       fff       fff       fff       fff       fff       fff       fff       fff       fff       fff       fff       fff       fff 
      fff       fff       fff       fff       fff       fff       fff       fff       fff       fff       fff       fff       fff       fff       fff       fff       fff       fff       fff       fff       fff       fff       fff       fff       fff       fff       fff       fff       fff       fff       fff       fff 
 fff       fff       fff       fff       fff       fff       fff       fff       fff       fff       fff       fff       fff       fff       fff       fff       fff       fff       fff       fff       fff       fff       fff       fff       fff       fff       fff       fff       fff       fff       fff       fff       fff 
      fff       fff       fff       fff       fff       fff       fff       fff       fff       fff       fff       fff       fff       fff       fff       fff       fff       fff       fff       fff       fff       fff       fff       fff       fff       fff       fff       fff       fff       fff       fff       fff 
 fff       fff       fff       fff       fff       fff       fff       fff       fff       fff       fff       fff       fff       fff       fff       fff       fff       fff       fff       fff       fff       fff       fff       fff       fff       fff       fff       fff       fff       fff       fff       fff       fff 
      fff       fff       fff       fff       fff       fff       fff       fff       fff       fff       fff       fff       fff       fff       fff       fff       fff       fff       fff       fff       fff       fff       fff       fff       fff       fff       fff       fff       fff       fff       fff       fff 
 fff       fff       fff       fff       fff       fff       fff       fff       fff       fff       fff       fff       fff       fff       fff       fff       fff       fff       fff       fff       fff       fff       fff       fff       fff       fff       fff       fff       fff       fff       fff       fff       fff 
      fff       fff       fff       fff       fff       fff       fff       fff       fff       fff       fff       fff       fff       fff       fff       fff       fff       fff       fff       fff       fff       fff       fff       fff       fff       fff       fff       fff       fff       fff       fff       fff 
 fff       fff       fff       fff       fff       fff       fff       fff       fff       fff       fff       fff       fff       fff       fff       fff       fff       fff       fff       fff       fff       fff       fff       fff       fff       fff       fff       fff       fff       fff       fff       fff       fff 
      fff       fff       fff       fff       fff       fff       fff       fff       fff       fff       fff       fff       fff       fff       fff       fff       fff       fff       fff       fff       fff       fff       fff       fff       fff       fff       fff       fff       fff       fff       fff       fff 
 fff       fff       fff       fff       fff       fff       fff       fff       fff       fff       fff       fff       fff       fff       fff       fff       fff       fff       fff       fff       fff       fff       fff       fff       fff       fff       fff       fff       fff       fff       fff       fff       fff 
      fff       fff       fff       fff       fff       fff       fff       fff       fff       fff       fff       fff       fff       fff       fff       fff       fff       fff       fff       fff       fff       fff       fff       fff       fff       fff       fff       fff       fff       fff       fff       fff 
 fff       fff       fff       fff       fff       fff       fff       fff       fff       fff       fff       fff       fff       fff       fff       fff       fff       fff       fff       fff       fff       fff       fff       fff       fff       fff       fff       fff       fff       fff       fff       fff       fff 
      fff       fff       fff       fff       fff       fff       fff       fff       fff       fff       fff       fff       fff       fff       fff       fff       fff       fff       fff       fff       fff       fff       fff       fff       fff       fff       fff       fff       fff       fff       fff       fff 
 fff       fff       fff       fff       fff       fff       fff       fff       fff       fff       fff       fff       fff       fff       fff       fff       fff       fff       fff       fff       fff       fff       fff       fff       fff       fff       fff       fff       fff       fff       fff       fff       fff 
      fff       fff       fff       fff       fff       fff       fff       fff       fff       fff       fff       fff       fff       fff       fff       fff       fff       fff       fff       fff       fff       fff       fff       fff       fff       fff       fff       fff       fff       fff       fff       fff 
 fff       fff       fff       fff       fff       fff       fff       fff       fff       fff       fff       fff       fff       fff       fff       fff       fff       fff       fff       fff       fff       fff       fff       fff       fff       fff       fff       fff       fff       fff       fff       fff       fff 
      fff       fff       fff       fff       fff       fff       fff       fff       fff       fff       fff       fff       fff       fff       fff       fff       fff       fff       fff       fff       fff       fff       fff       fff       fff       fff       fff       fff       fff       fff       fff       fff 
 fff       fff       fff       fff       fff       fff       fff       fff       fff       fff       fff       fff       fff       fff       fff       fff       fff       fff       fff       fff       fff       fff       fff       fff       fff       fff       fff       fff       fff       fff       fff       fff       fff 
      fff       fff       fff       fff       fff       fff       fff       fff       fff       fff       fff       fff       fff       fff       fff       fff       fff       fff       fff       fff       fff       fff       fff       fff       fff       fff       fff       fff       fff       fff       fff       fff 
 fff       fff       fff       fff       fff       fff       fff       fff       fff       fff       fff       fff       fff       fff       fff       fff       fff       fff       fff       fff       fff       fff       fff       fff       fff       fff       fff       fff       fff       fff       fff       fff       fff 
      fff       fff       fff       fff       fff       fff       fff       fff       fff       fff       fff       fff       fff       fff       fff       fff       fff       fff       fff       fff       fff       fff       fff       fff       fff       fff       fff       fff       fff       fff       fff       fff 
 fff       fff       fff       fff       fff       fff       fff       fff       fff       fff       fff       fff       fff       fff       fff       fff       fff       fff       fff       fff       fff       fff       fff       fff       fff       fff       fff       fff       fff       fff       fff       fff       fff 
      fff       fff       fff       fff       fff       fff       fff       fff       fff       fff       fff       fff       fff       fff       fff       fff       fff       fff       fff       fff       fff       fff       fff       fff       fff       fff       fff       fff       fff       fff       fff       fff 
 fff       fff       fff       fff       fff       fff       fff       fff       fff       fff       fff       fff       fff       fff       fff       fff       fff       fff       fff       fff       fff       fff       fff       fff       fff       fff       fff       fff       fff       fff       fff       fff       fff 
      fff       fff       fff       fff       fff       fff       fff       fff       fff       fff       fff       fff       fff       fff       fff       fff       fff       fff       fff       fff       fff       fff       fff       fff       fff       fff       fff       fff       fff       fff       fff       fff 
 fff       fff       fff       fff       fff       fff       fff       fff       fff       fff       fff       fff       fff       fff       fff       fff       fff       fff       fff       fff       fff       fff       fff       fff       fff       fff       fff       fff       fff       fff       fff       fff       fff 
      fff       fff       fff       fff       fff       fff       fff       fff       fff       fff       fff       fff       fff       fff       fff       fff       fff       fff       fff       fff       fff       fff       fff       fff       fff       fff       fff       fff       fff       fff       fff       fff 
 fff       fff       fff       fff       fff       fff       fff       fff       fff       fff       fff       fff       fff       fff       fff       fff       fff       fff       fff       fff       fff       fff       fff       fff       fff       fff       fff       fff       fff       fff       fff       fff       fff 
      fff       fff       fff       fff       fff       fff       fff       fff       fff       fff       fff       fff       fff       fff       fff       fff       fff       fff       fff       fff       fff       fff       fff       fff       fff       fff       fff       fff       fff       fff       fff       fff 
 fff       fff       fff       fff       fff       fff       fff       fff       fff       fff       fff       fff       fff       fff       fff       fff       fff       fff       fff       fff       fff       fff       fff       fff       fff       fff       fff       fff       fff       fff       fff       fff       fff 
      fff       fff       fff       fff       fff       fff       fff       fff       fff       fff       fff       fff       fff       fff       fff       fff       fff       fff       fff       fff       fff       fff       fff       fff       fff       fff       fff       fff       fff       fff       fff       fff 
 fff       fff       fff       fff       fff       fff       fff       fff       fff       fff       fff       fff       fff       fff       fff       fff       fff       fff       fff       fff       fff       fff       fff       fff       fff       fff       fff       fff       fff       fff       fff       fff       fff 
      fff       fff       fff       fff       fff       fff       fff       fff       fff       fff       fff       fff       fff       fff       fff       fff       fff       fff       fff       fff       fff       fff       fff       fff       fff       fff       fff       fff       fff       fff       fff       fff 
 fff       fff       fff       fff       fff       fff       fff       fff       fff       fff       fff       fff       fff       fff       fff       fff       fff       fff       fff       fff       fff       fff       fff       fff       fff       fff       fff       fff       fff       fff       fff       fff       fff 
      fff       fff       fff       fff       fff       fff       fff       fff       fff       fff       fff       fff       fff       fff       fff       fff       fff       fff       fff       fff       fff       fff       fff       fff       fff       fff       fff       fff       fff       fff       fff       fff 
 fff       fff       fff       fff       fff       fff       fff       fff       fff       fff       fff       fff       fff       fff       fff       fff       fff       fff       fff       fff       fff       fff       fff       fff       fff       fff       fff       fff       fff       fff       fff       fff       fff 
      fff       fff       fff       fff       fff       fff       fff       fff       fff       fff       fff       fff       fff       fff       fff       fff       fff       fff       fff       fff       fff       fff       fff       fff       fff       fff       fff       fff       fff       fff       fff       fff 
 fff       fff       fff       fff       fff       fff       fff       fff       fff       fff       fff       fff       fff       fff       fff       fff       fff       fff       fff       fff       fff       fff       fff       fff       fff       fff       fff       fff       fff       fff       fff       fff       fff 
      fff       fff       fff       fff       fff       fff       fff       fff       fff       fff       fff       fff       fff       fff       fff       fff       fff       fff       fff       fff       fff       fff       fff       fff       fff       fff       fff       fff       fff       fff       fff       fff 
 fff       fff       fff       fff       fff       fff       fff       fff       fff       fff       fff       fff       fff       fff       fff       fff       fff       fff       fff       fff       fff       fff       fff       fff       fff       fff       fff       fff       fff       fff       fff       fff       fff 
      fff       fff       GGG       fff       fff       fff       fff       fff       fff       fff       fff       fff       fff       fff       fff       fff       fff       fff       fff       fff       fff       fff       fff       fff       fff       fff       fff       fff       fff       fff       fff       fff 
 fff       fff       GGG       fff       GGG       fff       fff       fff       fff       fff       fff       fff       fff       fff       fff       fff       fff       fff       fff       fff       fff       fff       fff       fff       fff       fff       fff       fff       fff       fff       fff       fff       fff 
      fff       fff       GGG       GGG         1       fff       fff       fff       fff       fff       fff       fff       fff       fff       fff       fff       fff       fff       fff       fff       fff       fff       fff       fff       fff       fff       fff       fff       fff       fff       fff       fff 
 fff       fff       GGG       fff       GGG       fff       fff       fff       fff       fff       fff       fff       fff       fff       fff       fff       fff       fff       fff       fff       fff       fff       fff       fff       fff       fff       fff       fff       fff       fff       fff       fff       fff 
      fff       fff       GGG       GGG       fff       fff       fff       fff       fff       fff       fff       fff       fff       fff       fff       fff       fff       fff       fff       fff       fff       fff       fff       fff       fff       fff       fff       fff       fff       fff       fff       fff 
 fff        17       fff       fff         1         4         7       fff       fff       fff       fff       fff       fff       fff       fff       fff       fff       fff       fff       fff       fff       fff       fff       fff       fff       fff       fff       fff       fff       fff       fff       fff       fff 
       18        16       fff       fff       fff       fff         8       fff       fff       fff       fff       fff       fff       fff       fff       fff       fff       fff       fff       fff       fff       fff       fff       fff       fff       fff       fff       fff       fff       fff       fff       fff 
 fff       fff        15        12         f         c         9       fff       fff       fff       fff       fff       fff       fff       fff       fff       fff       fff       fff       fff       fff       fff       fff       fff       fff       fff       fff       fff       fff       fff       fff       fff       fff 
      fff       fff       fff       fff       fff       fff       fff       fff       fff       fff       fff       fff       fff       fff       fff       fff       fff       fff       fff       fff       fff       fff       fff       fff       fff       fff       fff       fff       fff       fff       fff       fff 
